FANN_FLO_2.1
num_layers=3
learning_rate=0.700000
connection_rate=1.000000
network_type=0
learning_momentum=0.000000
training_algorithm=2
train_error_function=1
train_stop_function=0
cascade_output_change_fraction=0.010000
quickprop_decay=-0.000100
quickprop_mu=1.750000
rprop_increase_factor=1.200000
rprop_decrease_factor=0.500000
rprop_delta_min=0.000000
rprop_delta_max=50.000000
rprop_delta_zero=0.100000
cascade_output_stagnation_epochs=12
cascade_candidate_change_fraction=0.010000
cascade_candidate_stagnation_epochs=12
cascade_max_out_epochs=150
cascade_max_cand_epochs=150
cascade_num_candidate_groups=2
bit_fail_limit=3.49999994039535522461e-01
cascade_candidate_limit=1.00000000000000000000e+03
cascade_weight_multiplier=4.00000005960464477539e-01
cascade_activation_functions_count=10
cascade_activation_functions=3 5 7 8 10 11 14 15 16 17 
cascade_activation_steepnesses_count=4
cascade_activation_steepnesses=2.50000000000000000000e-01 5.00000000000000000000e-01 7.50000000000000000000e-01 1.00000000000000000000e+00 
layer_sizes=4 31 3 
scale_included=0
neurons (num_inputs, activation_function, activation_steepness)=(0, 0, 0.00000000000000000000e+00) (0, 0, 0.00000000000000000000e+00) (0, 0, 0.00000000000000000000e+00) (0, 0, 0.00000000000000000000e+00) (4, 5, 5.00000000000000000000e-01) (4, 5, 5.00000000000000000000e-01) (4, 5, 5.00000000000000000000e-01) (4, 5, 5.00000000000000000000e-01) (4, 5, 5.00000000000000000000e-01) (4, 5, 5.00000000000000000000e-01) (4, 5, 5.00000000000000000000e-01) (4, 5, 5.00000000000000000000e-01) (4, 5, 5.00000000000000000000e-01) (4, 5, 5.00000000000000000000e-01) (4, 5, 5.00000000000000000000e-01) (4, 5, 5.00000000000000000000e-01) (4, 5, 5.00000000000000000000e-01) (4, 5, 5.00000000000000000000e-01) (4, 5, 5.00000000000000000000e-01) (4, 5, 5.00000000000000000000e-01) (4, 5, 5.00000000000000000000e-01) (4, 5, 5.00000000000000000000e-01) (4, 5, 5.00000000000000000000e-01) (4, 5, 5.00000000000000000000e-01) (4, 5, 5.00000000000000000000e-01) (4, 5, 5.00000000000000000000e-01) (4, 5, 5.00000000000000000000e-01) (4, 5, 5.00000000000000000000e-01) (4, 5, 5.00000000000000000000e-01) (4, 5, 5.00000000000000000000e-01) (4, 5, 5.00000000000000000000e-01) (4, 5, 5.00000000000000000000e-01) (4, 5, 5.00000000000000000000e-01) (4, 5, 5.00000000000000000000e-01) (0, 5, 0.00000000000000000000e+00) (31, 5, 5.00000000000000000000e-01) (31, 5, 5.00000000000000000000e-01) (0, 5, 0.00000000000000000000e+00) 
connections (connected_to_neuron, weight)=(0, -4.98283326625823974609e-01) (1, 5.50038993358612060547e-01) (2, 5.22111095488071441650e-02) (3, 1.41821599006652832031e+00) (0, -6.65698170661926269531e-01) (1, -2.48190257698297500610e-02) (2, -1.87819868326187133789e-01) (3, -1.52713701128959655762e-01) (0, 5.73830246925354003906e-01) (1, 5.90624868869781494141e-01) (2, 5.97757458686828613281e-01) (3, 5.76368153095245361328e-01) (0, -1.53418385982513427734e+00) (1, -3.01834106445312500000e-01) (2, -2.07426965236663818359e-01) (3, 2.58588480949401855469e+00) (0, 5.05220770835876464844e-01) (1, 4.64575767517089843750e-01) (2, 4.26883935928344726562e-01) (3, 4.14593160152435302734e-01) (0, -2.63510912656784057617e-01) (1, 8.27121019363403320312e-01) (2, -2.82068163156509399414e-01) (3, -4.17981177568435668945e-01) (0, -1.99832186102867126465e-01) (1, -7.57144391536712646484e-02) (2, -3.71778532862663269043e-02) (3, -1.86004087328910827637e-01) (0, -1.52163937687873840332e-01) (1, -7.20874890685081481934e-02) (2, -1.79850086569786071777e-01) (3, -1.28134280443191528320e-01) (0, -4.99620050191879272461e-01) (1, 4.49711203575134277344e-01) (2, 4.01676237583160400391e-01) (3, -5.35169303417205810547e-01) (0, 6.53059855103492736816e-02) (1, -3.50977689027786254883e-01) (2, -2.11735889315605163574e-02) (3, -3.11163872480392456055e-01) (0, -2.74109005928039550781e-01) (1, -2.32199523597955703735e-02) (2, -2.25544139742851257324e-01) (3, 1.56771913170814514160e-01) (0, 2.55356058478355407715e-02) (1, -2.57236182689666748047e-01) (2, -1.33146077394485473633e-01) (3, -1.87889724969863891602e-01) (0, -3.74452054500579833984e-01) (1, -7.58881568908691406250e-01) (2, -3.79807263612747192383e-01) (3, -1.05288803577423095703e+00) (0, -2.27041617035865783691e-01) (1, -1.73045061528682708740e-02) (2, -1.07240788638591766357e-01) (3, -4.79416782036423683167e-03) (0, 6.35721504688262939453e-01) (1, 6.32571518421173095703e-01) (2, 7.08106815814971923828e-01) (3, 7.44656443595886230469e-01) (0, -5.76866939663887023926e-02) (1, -1.70782899856567382812e+00) (2, 2.95812994241714477539e-01) (3, 4.32261019945144653320e-01) (0, 9.53122675418853759766e-02) (1, -6.80446699261665344238e-02) (2, -3.28050762414932250977e-01) (3, 8.18529307842254638672e-01) (0, -4.96677368879318237305e-01) (1, -1.32935613393783569336e-01) (2, 1.96021544933319091797e+00) (3, 1.05734324455261230469e+00) (0, -2.33080223202705383301e-01) (1, 1.95939838886260986328e-01) (2, -1.85394361615180969238e-01) (3, 2.38387286663055419922e-01) (0, 5.24104833602905273438e-01) (1, 4.36952322721481323242e-01) (2, 4.44753348827362060547e-01) (3, 4.59808468818664550781e-01) (0, -7.26593792438507080078e-01) (1, 2.64148980379104614258e-01) (2, 9.09291028976440429688e-01) (3, 4.05080556869506835938e-01) (0, 7.58140027523040771484e-01) (1, 5.64325809478759765625e-01) (2, 6.19632005691528320312e-01) (3, 6.24796926975250244141e-01) (0, 6.42202556133270263672e-01) (1, 5.73014020919799804688e-01) (2, 5.91413795948028564453e-01) (3, 5.79979717731475830078e-01) (0, -1.72985482215881347656e+00) (1, 1.84844776988029479980e-01) (2, 1.55576840043067932129e-01) (3, 6.90570995211601257324e-02) (0, 6.76924586296081542969e-01) (1, 6.39741539955139160156e-01) (2, 6.23170197010040283203e-01) (3, 7.00208485126495361328e-01) (0, 5.22491872310638427734e-01) (1, 5.44135212898254394531e-01) (2, 5.31013965606689453125e-01) (3, 5.34749090671539306641e-01) (0, 4.83638882637023925781e-01) (1, 2.68776565790176391602e-01) (2, 5.10965406894683837891e-01) (3, 1.66941866278648376465e-01) (0, -1.23810730874538421631e-01) (1, -7.80368074774742126465e-02) (2, -1.85603499412536621094e-01) (3, -5.96067272126674652100e-02) (0, -3.02907466888427734375e-01) (1, -6.45863890647888183594e-01) (2, -3.84411752223968505859e-01) (3, -8.99405300617218017578e-01) (0, 1.69078528881072998047e-01) (1, 1.44078820943832397461e-01) (2, -2.18221902847290039062e-01) (3, 2.14961525052785873413e-02) (4, -3.00597816705703735352e-01) (5, -1.51430636644363403320e-01) (6, -3.60201060771942138672e-01) (7, -9.45816859602928161621e-02) (8, 5.03717780113220214844e-01) (9, -1.48200362920761108398e-01) (10, 6.55101776123046875000e-01) (11, -1.30277216434478759766e-01) (12, 1.02411282062530517578e+00) (13, -9.61161702871322631836e-02) (14, -1.84404820203781127930e-01) (15, -7.66834691166877746582e-02) (16, 7.47572660446166992188e-01) (17, -2.27286800742149353027e-01) (18, -2.77531355619430541992e-01) (19, -1.72100841999053955078e-01) (20, 1.36424675583839416504e-01) (21, 4.26859110593795776367e-01) (22, -2.43989616632461547852e-01) (23, 4.84082102775573730469e-01) (24, -2.92017996311187744141e-01) (25, -3.63148957490921020508e-01) (26, -3.21181714534759521484e-01) (27, -3.04059088230133056641e-01) (28, -3.84853512048721313477e-01) (29, 4.55303341150283813477e-01) (30, 4.25576537847518920898e-01) (31, -1.91797062754631042480e-01) (32, 5.95462501049041748047e-01) (33, 8.09828102588653564453e-01) (34, 4.16152149438858032227e-01) (4, 4.16256695985794067383e-01) (5, -2.59449362754821777344e-01) (6, -2.03258603811264038086e-01) (7, -2.54540115594863891602e-01) (8, 5.79564392566680908203e-01) (9, -3.49953353404998779297e-01) (10, 6.37427568435668945312e-01) (11, -1.95593997836112976074e-01) (12, 2.58948802947998046875e-01) (13, -2.18487009406089782715e-01) (14, -1.75840049982070922852e-01) (15, -2.38682672381401062012e-01) (16, 5.29935181140899658203e-01) (17, -1.70184835791587829590e-01) (18, -1.87971577048301696777e-01) (19, -1.79116606712341308594e-01) (20, 4.18408721685409545898e-01) (21, -1.04440021514892578125e+00) (22, -1.02563135325908660889e-01) (23, 4.76267904043197631836e-01) (24, -3.36453914642333984375e-01) (25, -2.07774400711059570312e-01) (26, -1.61365687847137451172e-01) (27, -3.08234781026840209961e-01) (28, -1.62163391709327697754e-01) (29, 5.10314643383026123047e-01) (30, 5.24260103702545166016e-01) (31, -2.51925110816955566406e-01) (32, 6.60002410411834716797e-01) (33, 7.46150374412536621094e-01) (34, 4.98152285814285278320e-01) 
