FANN_FLO_2.1
num_layers=8
learning_rate=0.700000
connection_rate=1.000000
network_type=1
learning_momentum=0.000000
training_algorithm=2
train_error_function=0
train_stop_function=0
cascade_output_change_fraction=0.010000
quickprop_decay=-0.000100
quickprop_mu=1.750000
rprop_increase_factor=1.200000
rprop_decrease_factor=0.500000
rprop_delta_min=0.000000
rprop_delta_max=50.000000
rprop_delta_zero=0.100000
cascade_output_stagnation_epochs=12
cascade_candidate_change_fraction=0.010000
cascade_candidate_stagnation_epochs=12
cascade_max_out_epochs=150
cascade_max_cand_epochs=150
cascade_num_candidate_groups=2
bit_fail_limit=3.49999994039535522461e-01
cascade_candidate_limit=1.00000000000000000000e+03
cascade_weight_multiplier=4.00000005960464477539e-01
cascade_activation_functions_count=10
cascade_activation_functions=3 5 7 8 10 11 14 15 16 17 
cascade_activation_steepnesses_count=4
cascade_activation_steepnesses=2.50000000000000000000e-01 5.00000000000000000000e-01 7.50000000000000000000e-01 1.00000000000000000000e+00 
layer_sizes=4 1 1 1 1 1 1 2 
scale_included=0
neurons (num_inputs, activation_function, activation_steepness)=(0, 0, 0.00000000000000000000e+00) (0, 0, 0.00000000000000000000e+00) (0, 0, 0.00000000000000000000e+00) (0, 0, 0.00000000000000000000e+00) (4, 15, 2.50000000000000000000e-01) (5, 8, 7.50000000000000000000e-01) (6, 14, 7.50000000000000000000e-01) (7, 15, 5.00000000000000000000e-01) (8, 15, 7.50000000000000000000e-01) (9, 15, 1.00000000000000000000e+00) (10, 13, 5.00000000000000000000e-01) (10, 13, 5.00000000000000000000e-01) 
connections (connected_to_neuron, weight)=(0, 2.16603922843933105469e+00) (1, 2.22008109092712402344e+00) (2, -8.10017108917236328125e-01) (3, 1.10681819915771484375e+00) (0, -1.71181067824363708496e-01) (1, 4.20941226184368133545e-03) (2, 3.42094928026199340820e-01) (3, -5.81723868846893310547e-01) (4, 2.83990055322647094727e-01) (0, 2.18144011497497558594e+00) (1, 1.31247663497924804688e+00) (2, 8.79732131958007812500e-01) (3, -2.61136889457702636719e+00) (4, 3.63110661506652832031e-01) (5, 2.37148690223693847656e+00) (0, 1.17127621173858642578e+00) (1, 2.17193484306335449219e+00) (2, 8.84874463081359863281e-01) (3, 1.39461064338684082031e+00) (4, 1.89052629470825195312e+00) (5, 5.63176918029785156250e+00) (6, 5.44043838977813720703e-01) (0, 1.12932407855987548828e+00) (1, 1.73629796504974365234e+00) (2, 1.65785217285156250000e+00) (3, 7.42738246917724609375e-02) (4, 2.33702826499938964844e+00) (5, 8.71517479419708251953e-01) (6, 1.28394711017608642578e+00) (7, 3.03877377510070800781e+00) (0, 8.31354081630706787109e-01) (1, 1.29327893257141113281e+00) (2, 1.61672520637512207031e+00) (3, 2.17815065383911132812e+00) (4, 1.40757668018341064453e+00) (5, -5.41894137859344482422e-01) (6, 1.02382957935333251953e-01) (7, -9.70360815525054931641e-01) (8, 3.14997649192810058594e+00) (0, 4.60660047829151153564e-02) (1, 8.71449336409568786621e-02) (2, 4.81046214699745178223e-02) (3, -4.31194275617599487305e-01) (4, 2.88347452878952026367e-01) (5, 1.44139975309371948242e-01) (6, 2.05760732293128967285e-01) (7, 2.89513636380434036255e-02) (8, 1.54580324888229370117e-01) (9, -2.60936766862869262695e-02) (0, 1.17958359420299530029e-01) (1, 5.42428046464920043945e-02) (2, -1.61509588360786437988e-01) (3, 8.22102487087249755859e-01) (4, 2.28593125939369201660e-01) (5, -3.63960862159729003906e-01) (6, 8.51189717650413513184e-03) (7, 1.73086136579513549805e-01) (8, -2.14517302811145782471e-02) (9, -8.59286412596702575684e-02) 
